{
  "\t": 0,
  "\n": 1,
  "\r": 2,
  " ": 3,
  "!": 4,
  "\"": 5,
  "#": 6,
  "$": 7,
  "%": 8,
  "&": 9,
  "'": 10,
  "(": 11,
  ")": 12,
  "*": 13,
  "+": 14,
  ",": 15,
  "-": 16,
  ".": 17,
  "/": 18,
  "0": 19,
  "1": 20,
  "2": 21,
  "3": 22,
  "4": 23,
  "5": 24,
  "6": 25,
  "7": 26,
  "8": 27,
  "9": 28,
  ":": 29,
  ";": 30,
  "<": 31,
  "=": 32,
  ">": 33,
  "?": 34,
  "@": 35,
  "A": 36,
  "B": 37,
  "C": 38,
  "D": 39,
  "E": 40,
  "F": 41,
  "G": 42,
  "H": 43,
  "I": 44,
  "J": 45,
  "K": 46,
  "L": 47,
  "M": 48,
  "N": 49,
  "O": 50,
  "P": 51,
  "Q": 52,
  "R": 53,
  "S": 54,
  "T": 55,
  "U": 56,
  "V": 57,
  "W": 58,
  "X": 59,
  "Y": 60,
  "Z": 61,
  "[": 62,
  "\\": 63,
  "]": 64,
  "^": 65,
  "_": 66,
  "`": 67,
  "a": 68,
  "b": 69,
  "c": 70,
  "d": 71,
  "e": 72,
  "f": 73,
  "g": 74,
  "h": 75,
  "i": 76,
  "j": 77,
  "k": 78,
  "l": 79,
  "m": 80,
  "n": 81,
  "o": 82,
  "p": 83,
  "q": 84,
  "r": 85,
  "s": 86,
  "t": 87,
  "u": 88,
  "v": 89,
  "w": 90,
  "x": 91,
  "y": 92,
  "z": 93,
  "{": 94,
  "|": 95,
  "}": 96,
  "~": 97,
  "ఀ": 98,
  "ఁ": 99,
  "ం": 100,
  "ః": 101,
  "ఄ": 102,
  "అ": 103,
  "ఆ": 104,
  "ఇ": 105,
  "ఈ": 106,
  "ఉ": 107,
  "ఊ": 108,
  "ఋ": 109,
  "ఌ": 110,
  "₹": 111,
  "ఎ": 112,
  "ఏ": 113,
  "ఐ": 114,
  "఑": 115,
  "ఒ": 116,
  "ఓ": 117,
  "ఔ": 118,
  "క": 119,
  "ఖ": 120,
  "గ": 121,
  "ఘ": 122,
  "ఙ": 123,
  "చ": 124,
  "ఛ": 125,
  "జ": 126,
  "ఝ": 127,
  "ఞ": 128,
  "ట": 129,
  "ఠ": 130,
  "డ": 131,
  "ఢ": 132,
  "ణ": 133,
  "త": 134,
  "థ": 135,
  "ద": 136,
  "ధ": 137,
  "న": 138,
  "఩": 139,
  "ప": 140,
  "ఫ": 141,
  "బ": 142,
  "భ": 143,
  "మ": 144,
  "య": 145,
  "ర": 146,
  "ఱ": 147,
  "ల": 148,
  "ళ": 149,
  "ఴ": 150,
  "వ": 151,
  "శ": 152,
  "ష": 153,
  "స": 154,
  "హ": 155,
  "఺": 156,
  "఻": 157,
  "఼": 158,
  "ఽ": 159,
  "ా": 160,
  "ి": 161,
  "ీ": 162,
  "ు": 163,
  "ూ": 164,
  "ృ": 165,
  "ౄ": 166,
  "౅": 167,
  "ె": 168,
  "ే": 169,
  "ై": 170,
  "౉": 171,
  "ొ": 172,
  "ో": 173,
  "ౌ": 174,
  "్": 175,
  "౎": 176,
  "౏": 177,
  "౐": 178,
  "౑": 179,
  "౒": 180,
  "౓": 181,
  "౔": 182,
  "ౕ": 183,
  "ౖ": 184,
  "౗": 185,
  "ౘ": 186,
  "ౙ": 187,
  "ౚ": 188,
  "౛": 189,
  "౜": 190,
  "ౝ": 191,
  "౞": 192,
  "౟": 193,
  "ౠ": 194,
  "ౡ": 195,
  "ౢ": 196,
  "ౣ": 197,
  "౤": 198,
  "౥": 199,
  "౦": 200,
  "౧": 201,
  "౨": 202,
  "౩": 203,
  "౪": 204,
  "౫": 205,
  "౬": 206,
  "౭": 207,
  "౮": 208,
  "౯": 209,
  "౰": 210,
  "౱": 211,
  "౲": 212,
  "౳": 213,
  "౴": 214,
  "౵": 215,
  "౶": 216,
  "౷": 217,
  "౸": 218,
  "౹": 219,
  "౺": 220,
  "౻": 221,
  "౼": 222,
  "౽": 223,
  "౾": 224,
  "౿": 225,
  "।": 226,
  "॥": 227,
  "᳚": 228,
  "ని": 229,
  "రు": 230,
  "ది": 231,
  "లు": 232,
  "లో": 233,
  "కు": 234,
  "గా": 235,
  "రి": 236,
  "వి": 237,
  "కా": 238,
  "రా": 239,
  "ను": 240,
  "మా": 241,
  "వా": 242,
  "ప్ర": 243,
  "కి": 244,
  "డు": 245,
  "చే": 246,
  "డి": 247,
  "న్నా": 248,
  "నా": 249,
  "తి": 250,
  "చి": 251,
  "దు": 252,
  "పా": 253,
  "యి": 254,
  "రం": 255,
  "సం": 256,
  "సి": 257,
  "లి": 258,
  "మం": 259,
  "టి": 260,
  "న్": 261,
  "ర్": 262,
  "నే": 263,
  "గు": 264,
  "సు": 265,
  "తో": 266,
  "న్న": 267,
  "డా": 268,
  "చా": 269,
  "యా": 270,
  "దా": 271,
  "సా": 272,
  "శా": 273,
  "తా": 274,
  "ము": 275,
  "కో": 276,
  "మీ": 277,
  "లే": 278,
  "పు": 279,
  "లా": 280,
  "అం": 281,
  "పో": 282,
  "తు": 283,
  "ఉం": 284,
  "రో": 285,
  "మి": 286,
  "దే": 287,
  "వే": 288,
  "వు": 289,
  "భా": 290,
  "నీ": 291,
  "యం": 292,
  "ల్": 293,
  "బా": 294,
  "న్ని": 295,
  "నుం": 296,
  "నం": 297,
  "తె": 298,
  "తే": 299,
  "పి": 300,
  "స్తు": 301,
  "తీ": 302,
  "కొ": 303,
  "కూ": 304,
  "టు": 305,
  "తం": 306,
  "గ్రా": 307,
  "కే": 308,
  "పె": 309,
  "స్": 310,
  "హా": 311,
  "చె": 312,
  "కం": 313,
  "క్క": 314,
  "గి": 315,
  "యు": 316,
  "పై": 317,
  "ట్": 318,
  "డం": 319,
  "లం": 320,
  "మే": 321,
  "జా": 322,
  "క్ష": 323,
  "రీ": 324,
  "రిం": 325,
  "కుం": 326,
  "వ్య": 327,
  "టీ": 328,
  "ఇం": 329,
  "టా": 330,
  "జి": 331,
  "యో": 332,
  "ల్లో": 333,
  "ధా": 334,
  "వె": 335,
  "మె": 336,
  "సీ": 337,
  "ధి": 338,
  "వం": 339,
  "టే": 340,
  "మై": 341,
  "వై": 342,
  "ప్రా": 343,
  "పం": 344,
  "త్": 345,
  "త్ర": 346,
  "ఎం": 347,
  "ప్పు": 348,
  "రూ": 349,
  "రే": 350,
  "చు": 351,
  "గం": 352,
  "క్": 353,
  "డ్": 354,
  "వీ": 355,
  "హి": 356,
  "ప్ప": 357,
  "పే": 358,
  "జీ": 359,
  "గ్": 360,
  "దూ": 361,
  "స్తా": 362,
  "జు": 363,
  "త్త": 364,
  "దీ": 365,
  "చూ": 366,
  "త్రి": 367,
  "ణా": 368,
  "ర్య": 369,
  "పూ": 370,
  "లీ": 371,
  "స్య": 372,
  "మొ": 373,
  "సే": 374,
  "పీ": 375,
  "ద్ద": 376,
  "రె": 377,
  "మో": 378,
  "ట్టు": 379,
  "మూ": 380,
  "బు": 381,
  "ణం": 382,
  "తుం": 383,
  "కీ": 384,
  "ద్ర": 385,
  "భి": 386,
  "సిం": 387,
  "శం": 388,
  "చిం": 389,
  "భు": 390,
  "బం": 391,
  "ల్ల": 392,
  "దం": 393,
  "కేం": 394,
  "ట్లు": 395,
  "ధ్య": 396,
  "స్తుం": 397,
  "డే": 398,
  "ల్లా": 399,
  "ర్వ": 400,
  "త్య": 401,
  "శి": 402,
  "యిం": 403,
  "బి": 404,
  "టుం": 405,
  "కె": 406,
  "చ్చి": 407,
  "నె": 408,
  "క్కు": 409,
  "గిం": 410,
  "కృ": 411,
  "స్థా": 412,
  "త్వ": 413,
  "క్ర": 414,
  "వ్యా": 415,
  "పిం": 416,
  "ట్టి": 417,
  "భూ": 418,
  "ర్లు": 419,
  "స్థ": 420,
  "టిం": 421,
  "డీ": 422,
  "ఖ్య": 423,
  "ముం": 424,
  "ద్వా": 425,
  "ర్యా": 426,
  "గో": 427,
  "రెం": 428,
  "రై": 429,
  "త్వం": 430,
  "ద్య": 431,
  "సౌ": 432,
  "చం": 433,
  "మ్మ": 434,
  "సూ": 435,
  "యే": 436,
  "త్రం": 437,
  "ట్ట": 438,
  "ద్రం": 439,
  "ణి": 440,
  "ర్ల": 441,
  "దో": 442,
  "ట్ల": 443,
  "నూ": 444,
  "బో": 445,
  "మ్": 446,
  "వృ": 447,
  "దిం": 448,
  "గే": 449,
  "నో": 450,
  "లై": 451,
  "హిం": 452,
  "కిం": 453,
  "బీ": 454,
  "టూ": 455,
  "శు": 456,
  "సె": 457,
  "శ్రీ": 458,
  "స్వ": 459,
  "డ్డి": 460,
  "త్తి": 461,
  "చ్చు": 462,
  "స్త": 463,
  "డిం": 464,
  "ద్": 465,
  "ర్యం": 466,
  "ద్యా": 467,
  "ర్వా": 468,
  "సో": 469,
  "త్స": 470,
  "క్తి": 471,
  "లిం": 472,
  "లాం": 473,
  "షా": 474,
  "ల్లి": 475,
  "ర్త": 476,
  "ళ్ల": 477,
  "ర్తి": 478,
  "టె": 479,
  "కొం": 480,
  "కాం": 481,
  "థా": 482,
  "ర్శ": 483,
  "గ్ర": 484,
  "హె": 485,
  "ర్టీ": 486,
  "తూ": 487,
  "టం": 488,
  "ళా": 489,
  "ధు": 490,
  "జే": 491,
  "చెం": 492,
  "ర్మ": 493,
  "ధిం": 494,
  "లె": 495,
  "చ్చా": 496,
  "క్ట": 497,
  "జ్": 498,
  "స్తూ": 499,
  "త్వా": 500,
  "న్స్": 501,
  "ప్": 502,
  "శ్వ": 503,
  "త్రా": 504,
  "సై": 505,
  "ర్ణ": 506,
  "త్యా": 507,
  "స్తే": 508,
  "స్థి": 509,
  "తోం": 510,
  "హై": 511,
  "ఫో": 512,
  "ఫీ": 513,
  "ష్": 514,
  "త్తు": 515,
  "ష్ట": 516,
  "హం": 517,
  "పొ": 518,
  "య్యా": 519,
  "తః": 520,
  "ప్పా": 521,
  "యొ": 522,
  "హీ": 523,
  "స్వా": 524,
  "ర్మా": 525,
  "ట్టా": 526,
  "క్రి": 527,
  "వెం": 528,
  "ఫి": 529,
  "టో": 530,
  "ద్ధి": 531,
  "ప్రాం": 532,
  "వుం": 533,
  "ట్లా": 534,
  "ఫ్": 535,
  "స్తోం": 536,
  "ఆం": 537,
  "పొం": 538,
  "య్య": 539,
  "దృ": 540,
  "న్య": 541,
  "ష్ట్ర": 542,
  "షి": 543,
  "స్ట్": 544,
  "విం": 545,
  "శే": 546,
  "ద్ధ": 547,
  "ఖా": 548,
  "జం": 549,
  "నిం": 550,
  "త్యే": 551,
  "న్ను": 552,
  "స్టా": 553,
  "క్షి": 554,
  "శీ": 555,
  "ట్లో": 556,
  "ళ్ళ": 557,
  "డో": 558,
  "హు": 559,
  "చ్చే": 560,
  "త్మ": 561,
  "జ్ఞా": 562,
  "షు": 563,
  "వ్": 564,
  "ప్రే": 565,
  "చ్చిం": 566,
  "తొ": 567,
  "ధం": 568,
  "చ్చ": 569,
  "బె": 570,
  "బ్ర": 571,
  "యూ": 572,
  "త్తం": 573,
  "గ్గ": 574,
  "జె": 575,
  "గొ": 576,
  "జూ": 577,
  "శ్ర": 578,
  "న్యా": 579,
  "స్ప": 580,
  "త్ప": 581,
  "హో": 582,
  "సెం": 583,
  "డె": 584,
  "గుం": 585,
  "ర్థ": 586,
  "స్సు": 587,
  "ద్రా": 588,
  "గ్య": 589,
  "ళ్లు": 590,
  "ద్యు": 591,
  "ష్టం": 592,
  "గీ": 593,
  "య్": 594,
  "వ్వ": 595,
  "మెం": 596,
  "హే": 597,
  "నాం": 598,
  "ర్గా": 599,
  "డై": 600,
  "ర్చు": 601,
  "స్టు": 602,
  "బ్యాం": 603,
  "మృ": 604,
  "ర్పా": 605,
  "డ్డా": 606,
  "స్టే": 607,
  "చ్": 608,
  "చై": 609,
  "ల్సి": 610,
  "శ్చ": 611,
  "క్త": 612,
  "మాం": 613,
  "క్టా": 614,
  "ర్థి": 615,
  "మిం": 616,
  "ళ్లి": 617,
  "ప్పి": 618,
  "ప్రై": 619,
  "వో": 620,
  "ద్యో": 621,
  "బ్": 622,
  "ణు": 623,
  "నై": 624,
  "ర్డు": 625,
  "ళ్ళు": 626,
  "త్యం": 627,
  "ద్దు": 628,
  "స్ట": 629,
  "చీ": 630,
  "ర్కె": 631,
  "పెం": 632,
  "ల్లు": 633,
  "ధ్యా": 634,
  "చో": 635,
  "న్నీ": 636,
  "స్యా": 637,
  "భిం": 638,
  "జ్య": 639,
  "క్తం": 640,
  "జో": 641,
  "ర్టు": 642,
  "శ్": 643,
  "క్స్": 644,
  "క్షే": 645,
  "ట్టిం": 646,
  "ష్ణ": 647,
  "బై": 648,
  "యాం": 649,
  "ఫా": 650,
  "గ్రె": 651,
  "ర్లో": 652,
  "ధీ": 653,
  "ర్స్": 654,
  "హ్మ": 655,
  "బ్బం": 656,
  "ళి": 657,
  "గె": 658,
  "దీం": 659,
  "శో": 660,
  "భం": 661,
  "ర్తిం": 662,
  "ణీ": 663,
  "లూ": 664,
  "ఏం": 665,
  "ణ్": 666,
  "ప్రి": 667,
  "ళ్ళి": 668,
  "మ్మె": 669,
  "ర్పు": 670,
  "ష్ట్రం": 671,
  "టై": 672,
  "ర్భం": 673,
  "ధ్ర": 674,
  "మ్మా": 675,
  "న్యూ": 676,
  "ట్రా": 677,
  "క్షు": 678,
  "స్మా": 679,
  "షే": 680,
  "భ్యు": 681,
  "న్లో": 682,
  "వ్వు": 683,
  "సాం": 684,
  "భ్య": 685,
  "యః": 686,
  "ర్చ": 687,
  "స్తి": 688,
  "ష్టి": 689,
  "ర్గ": 690,
  "న్ల": 691,
  "న్లు": 692,
  "ర్చి": 693,
  "ర్ప": 694,
  "గ్గు": 695,
  "శాం": 696,
  "ల్డ్": 697,
  "క్కి": 698,
  "దొ": 699,
  "ల్ని": 700,
  "ఫె": 701,
  "మ్యా": 702,
  "ఖం": 703,
  "గృ": 704,
  "ల్స్": 705,
  "ల్లీ": 706,
  "వ్ర": 707,
  "గ్రీ": 708,
  "ర్గం": 709,
  "కై": 710,
  "తృ": 711,
  "డ్డు": 712,
  "ల్ప": 713,
  "త్రు": 714,
  "డూ": 715,
  "జై": 716,
  "ద్ధం": 717,
  "ర్మి": 718,
  "ణాం": 719,
  "ష్య": 720,
  "ర్వే": 721,
  "బ్యా": 722,
  "దై": 723,
  "ర్థం": 724,
  "గూ": 725,
  "నః": 726,
  "త్తా": 727,
  "క్తు": 728,
  "ర్థు": 729,
  "క్షా": 730,
  "ర్కొ": 731,
  "ణే": 732,
  "ప్పిం": 733,
  "ష్టా": 734,
  "గౌ": 735,
  "డ్లు": 736,
  "ట్స్": 737,
  "ద్వి": 738,
  "శిం": 739,
  "డ్యూ": 740,
  "తాం": 741,
  "ల్గొ": 742,
  "ద్ది": 743,
  "షె": 744,
  "ల్యే": 745,
  "బ్బు": 746,
  "ర్ట్": 747,
  "ర్ష": 748,
  "క్యా": 749,
  "బే": 750,
  "మ్ము": 751,
  "డ్డ": 752,
  "థి": 753,
  "ట్టే": 754,
  "ఫై": 755,
  "ఢి": 756,
  "షం": 757,
  "భో": 758,
  "బ్లి": 759,
  "ఖ్యా": 760,
  "భే": 761,
  "సృ": 762,
  "థ్యం": 763,
  "బ్బ": 764,
  "రః": 765,
  "రాం": 766,
  "ర్థా": 767,
  "పౌ": 768,
  "ఘా": 769,
  "న్నం": 770,
  "క్రీ": 771,
  "ష్ట్రా": 772,
  "ల్వే": 773,
  "ష్క": 774,
  "డ్రి": 775,
  "చేం": 776,
  "ర్శిం": 777,
  "గ్యా": 778,
  "దాం": 779,
  "బొ": 780,
  "రొ": 781,
  "గ్రం": 782,
  "ప్రో": 783,
  "డ్ల": 784,
  "ర్తు": 785,
  "ర్మిం": 786,
  "ర్శి": 787,
  "ణ్య": 788,
  "ర్న": 789,
  "దె": 790,
  "గాం": 791,
  "ఘం": 792,
  "న్స": 793,
  "ణిం": 794,
  "మైం": 795,
  "మః": 796,
  "స్కా": 797,
  "స్పె": 798,
  "ర్ధ": 799,
  "వ్వా": 800,
  "షో": 801,
  "ప్తం": 802,
  "ర్కు": 803,
  "శ్య": 804,
  "బూ": 805,
  "తిం": 806,
  "స్మి": 807,
  "బ్లీ": 808,
  "స్పం": 809,
  "ప్తి": 810,
  "ప్లా": 811,
  "సొ": 812,
  "స్త్రీ": 813,
  "ఛా": 814,
  "మౌ": 815,
  "క్టు": 816,
  "త్యు": 817,
  "స్టి": 818,
  "న్సి": 819,
  "జ్ఞ": 820,
  "చ్ఛ": 821,
  "న్మ": 822,
  "బృం": 823,
  "న్యం": 824,
  "క్ట్": 825,
  "శ్చి": 826,
  "నొ": 827,
  "ఖ్యం": 828,
  "ళం": 829,
  "రేం": 830,
  "భీ": 831,
  "వః": 832,
  "స్త్ర": 833,
  "ల్లిం": 834,
  "ల్లె": 835,
  "ట్రో": 836,
  "క్కిం": 837,
  "న్నో": 838,
  "ధ్వ": 839,
  "డెం": 840,
  "ఫ్యా": 841,
  "స్క": 842,
  "యె": 843,
  "గ్యం": 844,
  "స్మ": 845,
  "ద్రి": 846,
  "ప్రొ": 847,
  "మ్య": 848,
  "త్వే": 849,
  "కః": 850,
  "ధ్యం": 851,
  "ఖి": 852,
  "కౌ": 853,
  "ప్త": 854,
  "ఫు": 855,
  "బ్రి": 856,
  "స్వీ": 857,
  "ర్థః": 858,
  "ర్జు": 859,
  "య్యే": 860,
  "గ్గా": 861,
  "ప్య": 862,
  "స్కృ": 863,
  "శ్వా": 864,
  "ద్దే": 865,
  "సేం": 866,
  "బెం": 867,
  "ర్డ్": 868,
  "ద్భు": 869,
  "నేం": 870,
  "జ్యో": 871,
  "క్షిం": 872,
  "హృ": 873,
  "ప్యా": 874,
  "ర్షి": 875,
  "ర్ర": 876,
  "గ్ని": 877,
  "త్రే": 878,
  "ళ్లా": 879,
  "ల్యా": 880,
  "క్షం": 881,
  "ర్జా": 882,
  "లెం": 883,
  "స్నే": 884,
  "మ్యూ": 885,
  "ర్కొం": 886,
  "ఠా": 887,
  "షూ": 888,
  "క్య": 889,
  "ద్యం": 890,
  "శ్న": 891,
  "ట్ర": 892,
  "షిం": 893,
  "బ్రా": 894,
  "పాం": 895,
  "గ్గిం": 896,
  "స్పీ": 897,
  "త్నం": 898,
  "సః": 899,
  "లొ": 900,
  "తాః": 901,
  "ద్ధా": 902,
  "శ్రా": 903,
  "ర్క్": 904,
  "మ్నా": 905,
  "థం": 906,
  "ర్ణా": 907,
  "సొం": 908,
  "ర్తా": 909,
  "పృ": 910,
  "క్ష్యం": 911,
  "ల్పిం": 912,
  "క్కా": 913,
  "ధే": 914,
  "మ్మి": 915,
  "షాం": 916,
  "ళ్లీ": 917,
  "బౌ": 918,
  "త్పా": 919,
  "క్సి": 920,
  "ర్భ": 921,
  "జిం": 922,
  "ద్దా": 923,
  "ర్నె": 924,
  "త్సా": 925,
  "ష్ణు": 926,
  "న్నే": 927,
  "ర్ను": 928,
  "న్నిం": 929,
  "సుం": 930,
  "ర్ట్స్": 931,
  "ష్ణా": 932,
  "న్టీ": 933,
  "ట్టం": 934,
  "స్కూ": 935,
  "తిః": 936,
  "ర్వం": 937,
  "త్మా": 938,
  "ప్పం": 939,
  "క్యూ": 940,
  "గ్గి": 941,
  "ల్సిం": 942,
  "వ్యం": 943,
  "క్టో": 944,
  "ర్జ": 945,
  "శై": 946,
  "ట్నం": 947,
  "బ్బా": 948,
  "యాః": 949,
  "ద్వ": 950,
  "ధో": 951,
  "ల్లే": 952,
  "గొం": 953,
  "శ్రు": 954,
  "ష్టిం": 955,
  "ష్ఠ": 956,
  "స్తో": 957,
  "ల్పో": 958,
  "ష్యా": 959,
  "ప్తు": 960,
  "శ్నిం": 961,
  "ళ్ళీ": 962,
  "న్నాం": 963,
  "ళీ": 964,
  "డ్రు": 965,
  "ర్ని": 966,
  "ప్పే": 967,
  "న్సీ": 968,
  "గ్స్": 969,
  "న్కు": 970,
  "ఫే": 971,
  "ర్చా": 972,
  "త్రీ": 973,
  "ర్ధా": 974,
  "ర్షా": 975,
  "ద్రు": 976,
  "శ్రే": 977,
  "వేం": 978,
  "ర్భా": 979,
  "ణో": 980,
  "క్లా": 981,
  "లైం": 982,
  "డ్రై": 983,
  "ర్కా": 984,
  "చొ": 985,
  "కోం": 986,
  "బ్లా": 987,
  "టెం": 988,
  "క్లి": 989,
  "డేం": 990,
  "ర్వీ": 991,
  "ప్రీ": 992,
  "ళ్యా": 993,
  "స్లో": 994,
  "తై": 995,
  "ల్వ": 996,
  "ప్ల": 997,
  "క్ని": 998,
  "ట్టూ": 999,
  "గై": 1000,
  "స్టీ": 1001,
  "ర్టి": 1002,
  "య్యి": 1003,
  "త్నా": 1004,
  "జ్యం": 1005,
  "ళు": 1006,
  "హ్య": 1007,
  "ర్జీ": 1008,
  "క్స": 1009,
  "ల్లం": 1010,
  "వాం": 1011,
  "ర్ధం": 1012,
  "గ్రే": 1013,
  "ప్లే": 1014,
  "గ్లో": 1015,
  "స్ట్రీ": 1016,
  "త్తే": 1017,
  "ళ్ళా": 1018,
  "క్తా": 1019,
  "రూం": 1020,
  "స్యం": 1021,
  "బ్ద": 1022,
  "ప్రె": 1023,
  "క్రా": 1024,
  "వ్యాం": 1025,
  "క్కో": 1026,
  "న్వ": 1027,
  "ద్లో": 1028,
  "డ్రా": 1029,
  "త్నిం": 1030,
  "స్టో": 1031,
  "స్స": 1032,
  "ర్సు": 1033,
  "ర్పిం": 1034,
  "ర్వి": 1035,
  "ట్రి": 1036,
  "ర్రా": 1037,
  "డ్స్": 1038,
  "వ్యూ": 1039,
  "స్నా": 1040,
  "య్యిం": 1041,
  "భ్ర": 1042,
  "ల్లూ": 1043,
  "చ్య": 1044,
  "స్ట్రే": 1045,
  "బ్దం": 1046,
  "ణః": 1047,
  "డ్లో": 1048,
  "మ్స్": 1049,
  "ర్తీ": 1050,
  "గ్లా": 1051,
  "థ్": 1052,
  "షీ": 1053,
  "నౌ": 1054,
  "ఖు": 1055,
  "ఓం": 1056,
  "ల్చి": 1057,
  "నృ": 1058,
  "కౌం": 1059,
  "స్కో": 1060,
  "జెం": 1061,
  "క్ష్మి": 1062,
  "ప్టెం": 1063,
  "ర్క": 1064,
  "క్ష్మీ": 1065,
  "శః": 1066,
  "చౌ": 1067,
  "డొ": 1068,
  "శ్యా": 1069,
  "ట్వి": 1070,
  "ర్హ": 1071,
  "ప్యూ": 1072,
  "ఠి": 1073,
  "ర్యు": 1074,
  "డ్జె": 1075,
  "న్నె": 1076,
  "బ్దా": 1077,
  "ర్ఘ": 1078,
  "బిం": 1079,
  "దుః": 1080,
  "ఒం": 1081,
  "స్తం": 1082,
  "ర్చిం": 1083,
  "యీ": 1084,
  "క్ష్మ": 1085,
  "ట్యూ": 1086,
  "ద్వే": 1087,
  "వూ": 1088,
  "ర్నా": 1089,
  "భిః": 1090,
  "దౌ": 1091,
  "దః": 1092,
  "క్ల": 1093,
  "దొం": 1094,
  "శ్చా": 1095,
  "మ్రా": 1096,
  "క్రిం": 1097,
  "స్తీ": 1098,
  "క్ష్య": 1099,
  "డ్ర": 1100,
  "ర్జి": 1101,
  "ట్రై": 1102,
  "ర్బ": 1103,
  "నెం": 1104,
  "ఘు": 1105,
  "ర్పొ": 1106,
  "ద్దీ": 1107,
  "బ్యూ": 1108,
  "త్కా": 1109,
  "క్యం": 1110,
  "వ్రా": 1111,
  "హౌ": 1112,
  "క్రె": 1113,
  "క్రే": 1114,
  "చాం": 1115,
  "ష్ప": 1116,
  "మ్మం": 1117,
  "క్రో": 1118,
  "గ్రూ": 1119,
  "ట్రీ": 1120,
  "జ్జ": 1121,
  "ఘో": 1122,
  "ర్సి": 1123,
  "న్నై": 1124,
  "ర్ద": 1125,
  "ష్కా": 1126,
  "స్సా": 1127,
  "క్లో": 1128,
  "స్పి": 1129,
  "ల్య": 1130,
  "స్తాం": 1131,
  "త్న": 1132,
  "వ్రం": 1133,
  "భౌ": 1134,
  "ధూ": 1135,
  "ష్ఠా": 1136,
  "ల్పి": 1137,
  "యై": 1138,
  "స్కు": 1139,
  "ళూ": 1140,
  "ణ్యం": 1141,
  "న్గా": 1142,
  "యోః": 1143,
  "మేం": 1144,
  "హ్వా": 1145,
  "ప్రీం": 1146,
  "క్సె": 1147,
  "షః": 1148,
  "టోం": 1149,
  "త్క": 1150,
  "బ్రే": 1151,
  "జ్యా": 1152,
  "ర్రె": 1153,
  "శ్లో": 1154,
  "న్యు": 1155,
  "ట్వీ": 1156,
  "తౌ": 1157,
  "ఖీ": 1158,
  "ఫొ": 1159,
  "త్ని": 1160,
  "పుం": 1161,
  "ల్క": 1162,
  "శ్యం": 1163,
  "ర్స": 1164,
  "శూ": 1165,
  "ఫ్రి": 1166,
  "డౌ": 1167,
  "ట్ను": 1168,
  "ఖే": 1169,
  "లుం": 1170,
  "స్మృ": 1171,
  "ప్టె": 1172,
  "ధై": 1173,
  "భ్యం": 1174,
  "ర్మం": 1175,
  "క్వా": 1176,
  "న్మా": 1177,
  "ట్లే": 1178,
  "ర్ది": 1179,
  "స్త్రి": 1180,
  "న్మిం": 1181,
  "ర్షం": 1182,
  "బాం": 1183,
  "ఫ్రెం": 1184,
  "థు": 1185,
  "జాం": 1186,
  "త్లో": 1187,
  "ద్దం": 1188,
  "ధ్యే": 1189,
  "శ్లే": 1190,
  "త్తూ": 1191,
  "ద్మ": 1192,
  "రౌ": 1193,
  "ప్తా": 1194,
  "స్త్రం": 1195,
  "ర్ట": 1196,
  "క్ష్యా": 1197,
  "హూ": 1198,
  "చ్ఛా": 1199,
  "ర్ధి": 1200,
  "స్సీ": 1201,
  "వొ": 1202,
  "ఫం": 1203,
  "డ్డీ": 1204,
  "న్ష": 1205,
  "ర్కి": 1206,
  "ధృ": 1207,
  "గః": 1208,
  "ర్డ": 1209,
  "ర్ణం": 1210,
  "క్రాం": 1211,
  "ద్ధాం": 1212,
  "స్త్రా": 1213,
  "ళ్లే": 1214,
  "హ్నం": 1215,
  "ర్సీ": 1216,
  "హ్యా": 1217,
  "చ్ఛే": 1218,
  "గ్న": 1219,
  "స్పా": 1220,
  "స్వి": 1221,
  "క్కె": 1222,
  "స్లిం": 1223,
  "హోం": 1224,
  "రీం": 1225,
  "ద్దాం": 1226,
  "ప్లాం": 1227,
  "ర్తో": 1228,
  "హ్మా": 1229,
  "ల్చు": 1230,
  "క్షీ": 1231,
  "న్లై": 1232,
  "దుం": 1233,
  "త్రో": 1234,
  "శ్మీ": 1235,
  "న్యే": 1236,
  "ర్పి": 1237,
  "ట్టె": 1238,
  "ల్పు": 1239,
  "కాః": 1240,
  "ర్దే": 1241,
  "న్సు": 1242,
  "బ్రాం": 1243,
  "థో": 1244,
  "ర్తె": 1245,
  "ద్రో": 1246,
  "చ్ఛి": 1247,
  "ల్గొం": 1248,
  "థే": 1249,
  "ల్కు": 1250,
  "ర్నీ": 1251,
  "మ్మే": 1252,
  "ష్ణో": 1253,
  "డ్డం": 1254,
  "ర్నూ": 1255,
  "స్యై": 1256,
  "ల్యం": 1257,
  "పః": 1258,
  "ర్వు": 1259,
  "న్వి": 1260,
  "చ్లో": 1261,
  "ల్సీ": 1262,
  "ణ్యా": 1263,
  "ల్ను": 1264,
  "ల్గా": 1265,
  "ఠం": 1266,
  "నాః": 1267,
  "జొ": 1268,
  "స్తృ": 1269,
  "జేం": 1270,
  "త్రై": 1271,
  "న్తో": 1272,
  "క్నా": 1273,
  "య్యం": 1274,
  "భై": 1275,
  "భ్యా": 1276,
  "స్వే": 1277,
  "ల్చ": 1278,
  "స్ర": 1279,
  "లోం": 1280,
  "లః": 1281,
  "ప్లో": 1282,
  "త్త్వ": 1283,
  "ర్పం": 1284,
  "ద్ధు": 1285,
  "క్కొ": 1286,
  "జ్వ": 1287,
  "భ్యః": 1288,
  "ర్నే": 1289,
  "ఫ్ట్": 1290,
  "ధః": 1291,
  "స్క్": 1292,
  "క్షో": 1293,
  "ర్తుం": 1294,
  "క్టి": 1295,
  "చ్ఛం": 1296,
  "మ్యం": 1297,
  "ల్పా": 1298,
  "భృ": 1299,
  "గ్రి": 1300,
  "జ్యాం": 1301,
  "త్ప్ర": 1302,
  "గ్ల": 1303,
  "ట్రం": 1304,
  "థై": 1305,
  "క్సీ": 1306,
  "స్యే": 1307,
  "గ్రాం": 1308,
  "స్క్రీ": 1309,
  "డ్యా": 1310,
  "త్మి": 1311,
  "స్టిం": 1312,
  "వీం": 1313,
  "లుః": 1314,
  "స్వం": 1315,
  "ష్టు": 1316,
  "ద్భ": 1317,
  "ర్చ్": 1318,
  "క్తే": 1319,
  "ళ్ళే": 1320,
  "త్రిం": 1321,
  "శ్రి": 1322,
  "న్మో": 1323,
  "క్యాం": 1324,
  "సౌం": 1325,
  "దేం": 1326,
  "ఫ్లా": 1327,
  "హః": 1328,
  "ర్చే": 1329,
  "ద్దె": 1330,
  "న్డే": 1331,
  "ట్గా": 1332,
  "గ్లీ": 1333,
  "ల్యూ": 1334,
  "ట్కు": 1335,
  "క్యు": 1336,
  "టౌ": 1337,
  "ర్థే": 1338,
  "భ్యాం": 1339,
  "రాః": 1340,
  "లౌ": 1341,
  "ట్రే": 1342,
  "ప్ష": 1343,
  "తొం": 1344,
  "టాం": 1345,
  "న్సె": 1346,
  "రుం": 1347,
  "ష్యం": 1348,
  "క్లు": 1349,
  "ధ్రు": 1350,
  "స్ను": 1351,
  "స్టెం": 1352,
  "లేం": 1353,
  "ధ్వం": 1354,
  "ద్వీ": 1355,
  "ర్వ్యూ": 1356,
  "హ్లీ": 1357,
  "ర్మీ": 1358,
  "స్థీ": 1359,
  "మ్లో": 1360,
  "కెం": 1361,
  "ప్స్": 1362,
  "శె": 1363,
  "శ్వే": 1364,
  "శృ": 1365,
  "గ్లం": 1366,
  "స్టె": 1367,
  "బృ": 1368,
  "త్కు": 1369,
  "క్చ": 1370,
  "న్వే": 1371,
  "ఢీ": 1372,
  "ళ్ళం": 1373,
  "ట్యా": 1374,
  "స్రా": 1375,
  "ళ్తు": 1376,
  "ల్టీ": 1377,
  "ర్వో": 1378,
  "న్వా": 1379,
  "స్థు": 1380,
  "త్తీ": 1381,
  "స్టై": 1382,
  "శృం": 1383,
  "త్తో": 1384,
  "ర్హం": 1385,
  "స్లా": 1386,
  "న్సా": 1387,
  "ర్షే": 1388,
  "ర్వ్య": 1389,
  "డ్రో": 1390,
  "ద్ధే": 1391,
  "ర్థ్యం": 1392,
  "ర్కో": 1393,
  "భ్రం": 1394,
  "ర్జ్": 1395,
  "బ్సై": 1396,
  "హీం": 1397,
  "క్తో": 1398,
  "ర్సిం": 1399,
  "క్వ": 1400,
  "డ్ని": 1401,
  "శ్వి": 1402,
  "ర్యాం": 1403,
  "హేం": 1404,
  "టైం": 1405,
  "న్వె": 1406,
  "ర్లే": 1407,
  "స్ఫూ": 1408,
  "న్స్టా": 1409,
  "తుః": 1410,
  "ర్హి": 1411,
  "బ్ధి": 1412,
  "క్రై": 1413,
  "స్టూ": 1414,
  "ఖై": 1415,
  "ళ్లిం": 1416,
  "స్పృ": 1417,
  "ప్లి": 1418,
  "ఫ్రీ": 1419,
  "వ్వి": 1420,
  "స్పూ": 1421,
  "ర్గె": 1422,
  "ద్రీ": 1423,
  "స్పో": 1424,
  "జః": 1425,
  "ర్డి": 1426,
  "ఫ్రా": 1427,
  "త్సం": 1428,
  "న్రె": 1429,
  "ర్ము": 1430,
  "స్టాం": 1431,
  "క్సా": 1432,
  "చ్చె": 1433,
  "బ్రె": 1434,
  "ర్రి": 1435,
  "ఫ్లో": 1436,
  "ర్మో": 1437,
  "వ్వే": 1438,
  "క్తః": 1439,
  "క్కే": 1440,
  "క్రూ": 1441,
  "చ్చేం": 1442,
  "డ్యు": 1443,
  "న్షి": 1444,
  "ర్మే": 1445,
  "ర్న్": 1446,
  "ర్ణి": 1447,
  "హాం": 1448,
  "ల్తా": 1449,
  "ష్యు": 1450,
  "ల్పం": 1451,
  "స్యాః": 1452,
  "గ్యు": 1453,
  "శ్రాం": 1454,
  "ర్పై": 1455,
  "ర్ణిం": 1456,
  "ద్ః": 1457,
  "త్త్వా": 1458,
  "క్ట్రి": 1459,
  "డ్జి": 1460,
  "థాం": 1461,
  "స్యో": 1462,
  "రైం": 1463,
  "క్టీ": 1464,
  "ర్దు": 1465,
  "ద్వై": 1466,
  "తేః": 1467,
  "ర్యే": 1468,
  "గ్జి": 1469,
  "న్పై": 1470,
  "భ్యో": 1471,
  "ర్టై": 1472,
  "స్యాం": 1473,
  "ర్ట్ఫో": 1474,
  "స్ట్రా": 1475,
  "వ్వం": 1476,
  "జ్ఞే": 1477,
  "ల్తో": 1478,
  "ర్చీ": 1479,
  "ల్యాం": 1480,
  "ల్మా": 1481,
  "క్రం": 1482,
  "జ్యే": 1483,
  "క్వి": 1484,
  "దిః": 1485,
  "ర్యో": 1486,
  "ర్దా": 1487,
  "ర్త్": 1488,
  "రుః": 1489,
  "త్రాం": 1490,
  "ప్యం": 1491,
  "స్కి": 1492,
  "ర్బం": 1493,
  "ర్షిం": 1494,
  "క్ను": 1495,
  "చుం": 1496,
  "ళ్": 1497,
  "ష్ట్వా": 1498,
  "క్కుం": 1499,
  "థ్య": 1500,
  "ప్ను": 1501,
  "డుం": 1502,
  "ర్త్త": 1503,
  "యుం": 1504,
  "ట్రె": 1505,
  "గ్కు": 1506,
  "ప్ట్": 1507,
  "నీం": 1508,
  "క్వె": 1509,
  "ర్చో": 1510,
  "ర్గే": 1511,
  "స్బు": 1512,
  "ల్ట్": 1513,
  "ల్త్": 1514,
  "ష్వ": 1515,
  "ర్డీ": 1516,
  "ట్టేం": 1517,
  "ళ్ళిం": 1518,
  "ఛాం": 1519,
  "ఛై": 1520,
  "ష్ఠి": 1521,
  "న్యో": 1522,
  "జ్రా": 1523,
  "ర్కిం": 1524,
  "క్కీ": 1525,
  "స్తూం": 1526,
  "ఛే": 1527,
  "నిః": 1528,
  "హ్యం": 1529,
  "డ్రె": 1530,
  "వాః": 1531,
  "వ్యో": 1532,
  "గ్నే": 1533,
  "ర్హు": 1534,
  "శౌ": 1535,
  "స్పై": 1536,
  "స్ట్రి": 1537,
  "క్సై": 1538,
  "ప్డే": 1539,
  "ర్చుం": 1540,
  "ర్రీ": 1541,
  "త్తిం": 1542,
  "ర్నిం": 1543,
  "ట్వ": 1544,
  "న్వీ": 1545,
  "ట్సా": 1546,
  "ధ్రా": 1547,
  "త్వి": 1548,
  "ర్థ్యా": 1549,
  "ర్గీ": 1550,
  "యౌ": 1551,
  "ఘి": 1552,
  "ఖ్": 1553,
  "త్ర్య": 1554,
  "గ్లాం": 1555,
  "ద్భా": 1556,
  "త్తిః": 1557,
  "శ్శ": 1558,
  "ణ్ణి": 1559,
  "పేం": 1560,
  "న్ఫ": 1561,
  "న్మెం": 1562,
  "రౌం": 1563,
  "మాః": 1564,
  "ర్ధు": 1565,
  "ల్దా": 1566,
  "తూం": 1567,
  "మ్మో": 1568,
  "ట్రెం": 1569,
  "బొం": 1570,
  "ల్మ్": 1571,
  "ప్లీ": 1572,
  "హ్లా": 1573,
  "క్త్వా": 1574,
  "గ్ను": 1575,
  "ల్డిం": 1576,
  "ళ్లం": 1577,
  "గ్రౌం": 1578,
  "స్కీ": 1579,
  "ట్తో": 1580,
  "బ్లో": 1581,
  "థీ": 1582,
  "ష్టే": 1583,
  "త్స్య": 1584,
  "స్ల": 1585,
  "ప్ట": 1586,
  "క్ట్రా": 1587,
  "ద్కు": 1588,
  "గేం": 1589,
  "ర్కీ": 1590,
  "మ్మూ": 1591,
  "డిః": 1592,
  "శ్చే": 1593,
  "ల్బ": 1594,
  "డ్లూ": 1595,
  "ష్టో": 1596,
  "స్ఫు": 1597,
  "హ్": 1598,
  "ర్బా": 1599,
  "ద్మా": 1600,
  "ర్లా": 1601,
  "ద్రే": 1602,
  "ర్లాం": 1603,
  "ట్మెం": 1604,
  "ష్ట్యా": 1605,
  "డ్కు": 1606,
  "మ్ల": 1607,
  "ష్ఠం": 1608,
  "క్డౌ": 1609,
  "స్మై": 1610,
  "తైః": 1611,
  "వ్విం": 1612,
  "శ్రో": 1613,
  "ణై": 1614,
  "బ్రో": 1615,
  "ల్వా": 1616,
  "ళ్తా": 1617,
  "బ్బి": 1618,
  "మ్మీ": 1619,
  "ర్భి": 1620,
  "డ్మి": 1621,
  "క్లీ": 1622,
  "మొం": 1623,
  "బ్లూ": 1624,
  "స్థూ": 1625,
  "చ్లు": 1626,
  "స్క్రి": 1627,
  "ఖో": 1628,
  "స్పే": 1629,
  "ధ్": 1630,
  "ళ్ళూ": 1631,
  "జ్జా": 1632,
  "ట్యాం": 1633,
  "త్సు": 1634,
  "ర్పో": 1635,
  "స్సే": 1636,
  "స్బీ": 1637,
  "ప్తే": 1638,
  "హ్యాం": 1639,
  "ద్క": 1640,
  "డ్పీ": 1641,
  "ర్థో": 1642,
  "జ్వా": 1643,
  "ప్లై": 1644,
  "ళే": 1645,
  "ర్తృ": 1646,
  "డ్ను": 1647,
  "ల్చా": 1648,
  "చ్యం": 1649,
  "ర్జిం": 1650,
  "చ్ల": 1651,
  "ప్లె": 1652,
  "డ్వా": 1653,
  "మ్లా": 1654,
  "బ్ది": 1655,
  "క్స్ప్రె": 1656,
  "బ్దే": 1657,
  "బ్రూ": 1658,
  "ఛం": 1659,
  "ర్రు": 1660,
  "టీం": 1661,
  "ర్మూ": 1662,
  "ఠీ": 1663,
  "ష్మ": 1664,
  "ష్మి": 1665,
  "ర్గు": 1666,
  "జ్మెం": 1667,
  "జ్లో": 1668,
  "ష్పా": 1669,
  "బ్ల్యూ": 1670,
  "బ్దు": 1671,
  "న్పిం": 1672,
  "ల్డ": 1673,
  "క్తిః": 1674,
  "ప్నో": 1675,
  "థ్యా": 1676,
  "ల్కా": 1677,
  "స్కం": 1678,
  "న్స్లో": 1679,
  "త్కృ": 1680,
  "ద్గ": 1681,
  "ఫౌం": 1682,
  "ణాః": 1683,
  "త్పు": 1684,
  "త్రః": 1685,
  "ర్తం": 1686,
  "ల్స్లో": 1687,
  "ర్గ్": 1688,
  "చ్చం": 1689,
  "స్త్వ": 1690,
  "ర్థిం": 1691,
  "ర్బీ": 1692,
  "మ్ను": 1693,
  "భః": 1694,
  "శ్ని": 1695,
  "థ్రి": 1696,
  "శ్వం": 1697,
  "ల్చే": 1698,
  "ఝా": 1699,
  "థః": 1700,
  "ట్కా": 1701,
  "యేం": 1702,
  "క్లె": 1703,
  "ప్పె": 1704,
  "త్త్వం": 1705,
  "త్యో": 1706,
  "ష్టాం": 1707,
  "ర్ట్మెం": 1708,
  "యుః": 1709,
  "స్లి": 1710,
  "బ్ల": 1711,
  "ద్ధిః": 1712,
  "ఠః": 1713,
  "త్తేః": 1714,
  "క్నో": 1715,
  "హ్రూ": 1716,
  "ధిః": 1717,
  "స్కె": 1718,
  "ళ్తుం": 1719,
  "ల్మీ": 1720,
  "డ్నా": 1721,
  "దెం": 1722,
  "భ్రా": 1723,
  "ఫ్ట్వే": 1724,
  "స్కే": 1725,
  "ఫ్లై": 1726,
  "ల్లీః": 1727,
  "న్నెం": 1728,
  "ర్టె": 1729,
  "డ్తో": 1730,
  "లొం": 1731,
  "త్థా": 1732,
  "స్రో": 1733,
  "త్తె": 1734,
  "స్సై": 1735,
  "ష్టః": 1736,
  "నైః": 1737,
  "ఎ్": 1738,
  "రైః": 1739,
  "డ్రీ": 1740,
  "ర్వ్": 1741,
  "లాః": 1742,
  "గ్యాం": 1743,
  "థె": 1744,
  "క్రు": 1745,
  "ద్యే": 1746,
  "ప్న": 1747,
  "శ్చై": 1748,
  "ర్డె": 1749,
  "ల్దే": 1750,
  "ఫ్టీ": 1751,
  "క్త్యా": 1752,
  "న్నూ": 1753,
  "క్షః": 1754,
  "న్స్టి": 1755,
  "గ్వా": 1756,
  "క్తీ": 1757,
  "దైం": 1758,
  "మ్యు": 1759,
  "వ్యే": 1760,
  "ఫ్రం": 1761,
  "జ్జి": 1762,
  "త్కం": 1763,
  "గ్వి": 1764,
  "న్ప": 1765,
  "ఛి": 1766,
  "ర్గః": 1767,
  "స్థం": 1768,
  "యెం": 1769,
  "డ్నీ": 1770,
  "బ్ధ": 1771,
  "త్థ": 1772,
  "ష్యే": 1773,
  "చ్యు": 1774,
  "ల్ట": 1775,
  "గ్ధ": 1776,
  "హుః": 1777,
  "ష్ప్ర": 1778,
  "స్లాం": 1779,
  "ర్ఫా": 1780,
  "ర్మ్": 1781,
  "ధౌ": 1782,
  "జ్ఞు": 1783,
  "ల్ఫ్": 1784,
  "మ్మిం": 1785,
  "గ్వే": 1786,
  "థ్వీ": 1787,
  "ల్పై": 1788,
  "స్కాం": 1789,
  "ళ్ళో": 1790,
  "ర్దూ": 1791,
  "ష్ఠే": 1792,
  "స్టం": 1793,
  "ర్డ్స్": 1794,
  "ఫ్రాం": 1795,
  "ష్ణం": 1796,
  "ఖః": 1797,
  "ప్యు": 1798,
  "ళ్లూ": 1799,
  "ట్నా": 1800,
  "క్స్లో": 1801,
  "మ్ర": 1802,
  "ఢా": 1803,
  "వ్యు": 1804,
  "ఢం": 1805,
  "ప్రిం": 1806,
  "డః": 1807,
  "లఁ": 1808,
  "చః": 1809,
  "క్సు": 1810,
  "ర్లి": 1811,
  "ర్యః": 1812,
  "శ్మ": 1813,
  "స్లు": 1814,
  "ట్టుం": 1815,
  "ర్బి": 1816,
  "గ్ట": 1817,
  "న్ః": 1818,
  "క్ట్స్": 1819,
  "ర్ః": 1820,
  "ఢ్": 1821,
  "ష్మా": 1822,
  "ర్ణే": 1823,
  "ద్ధః": 1824,
  "గ్నీ": 1825,
  "హ్న": 1826,
  "బ్న": 1827,
  "జ్ర": 1828,
  "క్రొ": 1829,
  "ర్కే": 1830,
  "గ్నం": 1831,
  "ర్సా": 1832,
  "ఫాం": 1833,
  "ద్గీ": 1834,
  "త్యః": 1835,
  "తీం": 1836,
  "ప్మెం": 1837,
  "జ్యూ": 1838,
  "ర్ణీ": 1839,
  "ర్శం": 1840,
  "బ్సి": 1841,
  "త్ను": 1842,
  "ప్లు": 1843,
  "స్త్": 1844,
  "క్ప": 1845,
  "జ్జీ": 1846,
  "స్పెం": 1847,
  "ట్టీ": 1848,
  "ష్ట్రీ": 1849,
  "తేం": 1850,
  "న్పి": 1851,
  "న్ఫో": 1852,
  "న్ము": 1853,
  "దాః": 1854,
  "త్ర్యం": 1855,
  "జ్రీ": 1856,
  "ర్పే": 1857,
  "న్ఫె": 1858,
  "స్ట్ర": 1859,
  "బ్జె": 1860,
  "భాం": 1861,
  "వ్యః": 1862,
  "ర్ణు": 1863,
  "న్డీ": 1864,
  "గ్తో": 1865,
  "ప్యే": 1866,
  "గాః": 1867,
  "ద్ధో": 1868,
  "స్గా": 1869,
  "ష్ర్టా": 1870,
  "ప్తిః": 1871,
  "ర్సె": 1872,
  "ఫ్యూ": 1873,
  "ట్య": 1874,
  "క్బ": 1875,
  "ల్మ": 1876,
  "ఘృ": 1877,
  "క్షాం": 1878,
  "స్యు": 1879,
  "ళ్తే": 1880,
  "మ్కు": 1881,
  "జృం": 1882,
  "ర్పీ": 1883,
  "వ్వె": 1884,
  "ద్రిం": 1885,
  "టొ": 1886,
  "హ్మో": 1887,
  "ర్పూ": 1888,
  "స్సి": 1889,
  "ద్రః": 1890,
  "ఖ్యే": 1891,
  "త్తై": 1892,
  "హొ": 1893,
  "ప్తో": 1894,
  "ర్రం": 1895,
  "క్యే": 1896,
  "బ్రౌ": 1897,
  "ఠే": 1898,
  "ధ్యు": 1899,
  "డ్చ": 1900,
  "డ్గా": 1901,
  "జాః": 1902,
  "ర్మె": 1903,
  "గ్లు": 1904,
  "డ్జ్": 1905,
  "గ్లి": 1906,
  "గ్గే": 1907,
  "ట్బా": 1908,
  "ర్చొ": 1909,
  "ఫ్ల": 1910,
  "ద్గు": 1911,
  "ద్వం": 1912,
  "ప్టు": 1913,
  "వ్వొ": 1914,
  "ణ్యే": 1915,
  "డాం": 1916,
  "త్మీ": 1917,
  "ప్పొ": 1918,
  "జ్ఞః": 1919,
  "స్ధా": 1920,
  "బ్బిం": 1921,
  "సైం": 1922,
  "ళ్లేం": 1923,
  "హుం": 1924,
  "క్లై": 1925,
  "డ్క": 1926,
  "క్లే": 1927,
  "య్యో": 1928,
  "కైః": 1929,
  "భ్రాం": 1930,
  "స్ట్రో": 1931,
  "వౌ": 1932,
  "గ్స్లో": 1933,
  "ట్లుం": 1934,
  "న్క": 1935,
  "ల్టి": 1936,
  "డ్య": 1937,
  "స్ని": 1938,
  "ల్గ": 1939,
  "ప్టి": 1940,
  "ర్తొ": 1941,
  "ల్ఫీ": 1942,
  "ఛీ": 1943,
  "క్కం": 1944,
  "డ్వ": 1945,
  "షెం": 1946,
  "క్గా": 1947,
  "జ్జు": 1948,
  "ప్పీ": 1949,
  "ర్వై": 1950,
  "స్కౌం": 1951,
  "జ్ఞో": 1952,
  "చ్యా": 1953,
  "డ్రే": 1954,
  "ల్రె": 1955,
  "ర్బో": 1956,
  "త్వాం": 1957,
  "జ్కు": 1958,
  "డ్డిం": 1959,
  "ల్కి": 1960,
  "బ్దో": 1961,
  "ష్కు": 1962,
  "న్సూ": 1963,
  "ల్వం": 1964,
  "ర్గో": 1965,
  "ర్తే": 1966,
  "న్చా": 1967,
  "ర్శు": 1968,
  "తెం": 1969,
  "ర్లె": 1970,
  "ప్స": 1971,
  "హ్ని": 1972,
  "ర్గి": 1973,
  "డ్ప": 1974,
  "ద్గా": 1975,
  "ట్లీ": 1976,
  "త్తః": 1977,
  "శ్నా": 1978,
  "ట్లూ": 1979,
  "ట్పై": 1980,
  "ళిం": 1981,
  "వ్గా": 1982,
  "డ్డూ": 1983,
  "న్కి": 1984,
  "ఘ్న": 1985,
  "జ్ఞం": 1986,
  "ల్గు": 1987,
  "బ్దః": 1988,
  "గ్రో": 1989,
  "ల్టా": 1990,
  "న్యః": 1991,
  "ల్స": 1992,
  "న్త": 1993,
  "హ్నా": 1994,
  "నఁ": 1995,
  "ఘిం": 1996,
  "గ్మ": 1997,
  "ద్ధీ": 1998,
  "స్యూ": 1999,
  "ద్రౌ": 2000,
  "త్వో": 2001,
  "త్రె": 2002,
  "జ్ను": 2003,
  "స్త్రే": 2004,
  "శ్రూ": 2005,
  "గ్బా": 2006,
  "టః": 2007,
  "న్పూ": 2008,
  "యిః": 2009,
  "ర్థ్య": 2010,
  "స్త్య": 2011,
  "పౌం": 2012,
  "శ్యే": 2013,
  "ఖాం": 2014,
  "ట్ఫా": 2015,
  "త్పూ": 2016,
  "ర్జె": 2017,
  "ప్పై": 2018,
  "త్ఫ": 2019,
  "త్తాం": 2020,
  "బ్లె": 2021,
  "ద్వాం": 2022,
  "ఫ్రె": 2023,
  "లిః": 2024,
  "న్హా": 2025,
  "ద్భి": 2026,
  "ట్లాం": 2027,
  "న్జీ": 2028,
  "చ్కు": 2029,
  "న్స్పె": 2030,
  "డఁ": 2031,
  "గ్దా": 2032,
  "శ్కు": 2033,
  "స్సం": 2034,
  "ఘ్ర": 2035,
  "ఫ్లి": 2036,
  "మ్లం": 2037,
  "న్సే": 2038,
  "ల్పే": 2039,
  "ర్లీ": 2040,
  "ణ్కు": 2041,
  "క్స్ట్": 2042,
  "[PAD]": 2043,
  "[UNK]": 2044,
  "[BOS]": 2045,
  "[EOS]": 2046,
  "[MASK]": 2047
}